00111110000010111010000010110101
00111110101100111000111010011100
10111101011000010101001110101001
00111110101001010011111110001011
00111110101101000011010011001100
00111110100000101111010001110110
10111101111110000010110001110010
00111110101000010100100100001111
10111110010111010000001011110110
10111110100010111111010101111001
00111101000100000100111110100101
10111110010010001110011100110000
00111100111001011010000011011110
00111100001000010110010010110110
00111100110111001100000101000011
10111101100110011111011110011011
00111110001011011010011110011011
10111110000011010101010010101110
10111101110111010000000101110000
10111101110001010110111000010100
00111110100100010100101100100010
10111110000100110001001001010000
00111110011000111110001101101011
00111100010010101100111110001110
00111101011001101101001110001011
10111110100111110011011110100011
00111101100000010001000100010010
10111100100000100000000001011000
10111100110100000100011010111000
00111110011110100110100010100110
00111110000011100110100111001101
10111110100010001001101101101101
10111100100001010101111100001010
00111101101010010110110010111100
00111011100101111000000000010101
10111101101111100000101000101111
00111110001000000111010000001011
10111110010001101000011010100110
00111110100010010111100010001001
00111110011101000001011101101111
00111100111011111100111101011111
10111101110000011010110101010001
10111100000010101110101010111001
10111101010001000111001110100111
00111110000110111010111101111011
00111101111010111001111100111011
00111110101011000101101100111011
10111101100110101001000111101010
10111101000001010000011000000001
00111110011011111011000100001101
00111110001110000011001000101111
00111110010101001100101011010011
00111110001000111001100010001000
00111110100110011011100101001011
00111110100110110001110001000100
10111101110001010101001111100110
10111110100110001010111101011111
10111110010101000000111001011101
10111110011110101011011101111101
00111110000100000010011011011000
00111101100100110010011110000111
00111110100011111101100011000011
10111110100000000111000111111111
10111110100001011101010011111001
00111101111001010100101110000101
00111101111101101101011101100010
10111110000001010011001111011011
10111110100010000000100111011000
00111101111010011101010011010111
00111110011100011110010101111111
00111101111000011010101001011101
00111101101001000011110001001100
10111110001110100110101001001111
00111010010010111010110100000100
00111011110100110101111010001110
00111110001101000001011010000111
10111110000001001011111010101011
00111110100010110010011101010001
00111101101110000010111001010111
00111110010110010101001000011000
00111100110110100100011101101000
00111110001000101111000101110010
10111101110000101010001010100010
10111100001011001111101100111100
00111101110000011111101001011101
00111101101001111011110001101111
10111101101110001100010100100000
00111110100001101001000100011001
00111110000010101111111000110000
10111110010111001101000100010101
00111110100001110111010110110100
10111100101111001101001110010111
10111110000000000111010110110100
00111101110101010011000111010001
00111110000000001100110011100010
00111110000011111110011111010010
00111110101001000101100011111111
10111110000000100110100100111111
10111110100000011110001111110110
00111110101011011111000101111011
10111101001101001101101011000110
10111110011000111110110111110011
00111101011010000110011001100111
00111101111100011010001010010111
10111101010010101001101000110111
00111110100000001101101001011100
10111101100111011100000000111001
10111100111011011000011010100110
00111110101010101011000101000011
00111110000111001111100100010000
10111110100000110001001111001010
00111100111011101110100100101111
