00111110000010111010000010110101
00111110101100111000111010011100
10111101011000010101001110101001
00111110101001010011111110001011
00111110101101000011010011001100
00111110100000101111010001110110
10111101111110000010110001110010
00111110101000010100100100001111
10111110010111010000001011110110
10111110100010111111010101111001
00111101000100000100111110100101
10111110010010001110011100110000
00111100111001011010000011011110
00111100001000010110010010110110
00111100110111001100000101000011
10111101100110011111011110011011
00111110001011011010011110011011
10111110000011010101010010101110
10111101110111010000000101110000
10111101110001010110111000010100
00111110100100010100101100100010
10111110000100110001001001010000
00111110011000111110001101101011
00111100010010101100111110001110
00111101011001101101001110001011
10111110100111110011011110100011
00111101100000010001000100010010
10111100100000100000000001011000
10111100110100000100011010111000
00111110011110100110100010100110
00111110000011100110100111001101
10111110100010001001101101101101
10111100100001010101111100001010
00111101101010010110110010111100
00111011100101111000000000010101
10111101101111100000101000101111
00111110001000000111010000001011
10111110010001101000011010100110
00111110100010010111100010001001
00111110011101000001011101101111
00111100111011111100111101011111
10111101110000011010110101010001
10111100000010101110101010111001
10111101010001000111001110100111
00111110000110111010111101111011
00111101111010111001111100111011
00111110101011000101101100111011
10111101100110101001000111101010
10111101000001010000011000000001
00111110011011111011000100001101
00111110001110000011001000101111
00111110010101001100101011010011
00111110001000111001100010001000
00111110100110011011100101001011
00111110100110110001110001000100
10111101110001010101001111100110
10111110100110001010111101011111
10111110010101000000111001011101
10111110011110101011011101111101
00111110000100000010011011011000
00111101100100110010011110000111
00111110100011111101100011000011
10111110100000000111000111111111
10111110100001011101010011111001
00111101111001010100101110000101
00111101111101101101011101100010
10111110000001010011001111011011
10111110100010000000100111011000
00111101111010011101010011010111
00111110011100011110010101111111
00111101111000011010101001011101
00111101101001000011110001001100
10111110001110100110101001001111
00111010010010111010110100000100
00111011110100110101111010001110
00111110001101000001011010000111
10111110000001001011111010101011
00111110100010110010011101010001
00111101101110000010111001010111
00111110010110010101001000011000
00111100110110100100011101101000
00111110001000101111000101110010
10111101110000101010001010100010
10111100001011001111101100111100
00111101110000011111101001011101
00111101101001111011110001101111
10111101101110001100010100100000
00111110100001101001000100011001
00111110000010101111111000110000
10111110010111001101000100010101
00111110100001110111010110110100
10111100101111001101001110010111
10111110000000000111010110110100
00111101110101010011000111010001
00111110000000001100110011100010
00111110000011111110011111010010
00111110101001000101100011111111
10111110000000100110100100111111
10111110100000011110001111110110
00111110101011011111000101111011
10111101001101001101101011000110
10111110011000111110110111110011
00111101011010000110011001100111
00111101111100011010001010010111
10111101010010101001101000110111
00111110100000001101101001011100
10111101100111011100000000111001
10111100111011011000011010100110
00111110101010101011000101000011
00111110000111001111100100010000
10111110100000110001001111001010
00111100111011101110100100101111
00111110100001111011100101110110
10111101101010010001001010010111
10111011001000111110011101110111
00111100011010010111010111010111
00111110011111010101011010000000
10111110100000010101001010101101
10111110010010111001010110011010
10111110001100010001001000111101
10111100100110000011011010110111
10111011111000010000101010000011
00111101111101101111110110100110
10111101101111111011110001010010
00111101101111010110111011010001
10111100111001011100101110000101
10111100100011010011101100110100
10111110000110111010011001001110
00111100110011101111111001000001
00111101110010001000110001011100
10111101000001101100111111110100
00111110000101000110110111110111
10111101101011110111000000001011
10111101000100101001001110010100
00111110011110011110011010100001
10111110100000001101000100101101
00111011000001111010000001001111
10111110100101011110000100101000
00111110100001111011110001001011
00111110011000000111000011011100
10111011100101110011110011101110
10111101000111001101110001110000
10111101100100111001101000010101
00111110100001111001010110011111
00111101101011001001100100111111
10111110000001010011110111100000
10111110011110110001110110000010
10111110000110011100000110001101
10111100101010100110110001111111
00111110100001101000010010000001
00111010100100011000110001001001
00111101110000000111000000100000
10111100100010111101001010111101
10111101111000111001010100111000
00111110010110011010011111000001
10111110000000100001110000101000
10111110001000001010100100010100
00111110010101001100000100101111
00111101010010011000001111010010
00111110000000110000000000110001
00111110001000100101111010010001
00111110100010010001101111011011
00111101110111001011000111010011
00111110010100010110000011010101
00111110010001110111100001111011
00111110000110011011001000011000
00111110001101101110011110011100
00111110100000011100111011101101
00111101101100000110101100000100
00111011111000010000000000000110
00111101100110011100100000010111
00111110100000101100111000010101
00111100111011000000100001111100
00111011100000100000100101000000
00111110001001111101001011010111
00111110101100010111010010100111
10111101010001110010000000100001
10111101101001011111010100100100
10111101110110111000100100111001
00111101111110000010111110110101
00111101011100110001001001010100
10111110000100011100011000110011
10111110010010010011010101101010
10111110000111101111001001001000
00111110011110000110101100100100
10111100110010001000101111101100
00111010101000110000100110001000
00111110010001100001110000101001
10111110001011000100001110001111
00111110011100100011010001010100
10111101100011101111101110010000
00111101110111001001001111011110
00111100000000011101000010001000
00111110000011010000010001110000
00111101111100001001011010101110
10111101110010101110001110111010
10111101001001100100101000000011
00111110010111001000011010011000
00111101111101111100011110011111
10111110010100000101110010000111
10111110010101010101100011001110
10111101100110101111010001001010
10111110010010000001010011001111
00111110001010010011011100100100
10111101100101101010011010101000
00111110000010111110111001111100
10111110000101000100111000110001
10111110000110100010100101000001
10111110000011101001011011110001
10111101111101100000100011111110
10111110100101000100111001010101
00111101000001000110010001010101
10111011000011000011010010011010
00111110001110000001111010000101
00111101011111110111001000110101
00111110001010011010001110111101
00111110011001010111001000000101
10111110000011000101111100000101
10111100000010110010100100101101
00111110100001110110111010010101
00111101111001011101001010000001
10111110100100010010100011000111
00111011110011001100110000111010
10111101100001111000010011100011
10111101100111001111110000111101
10111101111101100010101111010100
00111100101111000101110101101011
10111110001100110010000000101101
10111110001110001100100011001000
00111101110011001001100110001101
00111101110001011010000001011000
10111101111000101100100110110010
00111110001011100111011100001011
10111101110100010101110001111111
00111011010010001110100000010001
10111110000001011000110101100000
10111100100110111011001110000111
10111110001001000000101110000110
00111101100111001111011010011111
00111101100110001000110101000001
00111110000000000101001010111011
10111110100010110001100011000010
10111110001011101011011010011000
10111101001000010101001110110100
10111110011100110111110000111001
00111101100000001000100101110010
10111101110010111110010000001011
10111110101100100011111111010000
10111101100010011000010111011001
10111110011100110101100011001111
00111100110000000001010001010100
00111110001000000110100110110101
00111101100010110101100100111010
10111110001001010011001100100110
00111110100100001010011101011001
00111100111010100100000101101101
10111110001001011010100111101011
00111110100000001001001000101011
00111110011110001111011001100110
00111101000010000010001110101111
00111010101011110110101100011110
00111110000010101110011011000100
00111101100101000000000110110010
10111100000011010011010000010000
00111110000101110011100001011011
00111110001100110011001010101010
10111110000111110100010000000000
10111101101100111000111011001010
00111110100011100010011111101110
10111110000110010111000110101011
00111101011111011001100110001101
00111110000100001110000101010000
10111110000100001001001100100101
00111110011110011000101010001110
10111110000000100001100001101001
00111101000101000010011011100001
00111101111011000000011100100000
10111110000111001011010101111000
10111110011110101101101100100101
10111101110111011101111010000101
10111110100111000101100100011001
10111110100011111000000010001011
00111101001111011101001010100010
10111110100111100010110010101011
10111110010111101110101011011100
10111110100101010111110010111101
10111110100010101000001000010110
00111101011100000100011111001010
10111110000011001000101011100111
00111101110001011010001110010101
10111101001101001010101010001011
00111100000110001111101010001110
00111101110111101001100100110100
10111110001010011101011111110111
00111101010010001100000110011111
00111110000101010000011001001100
00111101001000101101110000001100
00111110010100110000100111101001
00111110011110001010110011011111
00111101100000100111011110000000
00111110100001111111111000000101
10111101101001010110011100110110
00111010101010100011001101101100
00111101010101011111101000000110
00111110000010010011011001000011
10111101010101101010110010111000
00111101101100101010100100010010
00111110011010010110100110010100
10111110000001110111110010001010
00111110010000000110001100001101
00111110001011111110110110110000
10111101001101111101101010100001
00111101000011110101010000011011
10111110100011110001111010101101
10111110011110110001110110000111
00111110110000001010110101101110
00111110000011100011110101000111
00111110100100011010100001101110
00111100010110010010100001011101
10111110001000001010111111101001
00111101110101111111000001001101
10111110001101101000100011110110
00111101100010110111010001100010
00111110000001111011010111000001
10111101001011000000111100111101
10111100110100100001111100010011
10111101010110110010110001000011
00111110000000110111010111000010
00111101010011000000101000110101
00111101110000000011110000000110
00111101111011010001100011010001
10111110010000110000010110111110
10111110100000111001101010100111
00111100001010110000000100011011
10111101110010111100100010011001
00111110001000011111101010011010
00111110100010111000111001111000
00111101101011111111100011000110
00111101100110110111011000100110
00111101110110010010101000000100
00111110010011110100100110011101
10111110011101100000000011100101
00111110011000001101001011011011
10111110000111110011100100011110
10111100110001101110101000100010
00111101101000010101111111001110
00111101100100101000011110010000
00111101000010101011011101111001
10111110000011101111001001000000
10111110010101000111010010101011
00111101111010011011111001111111
10111110011011011110101000111010
00111101110001111000010100011111
00111110101001001010110101001111
00111101101110100101100100101110
00111110001011011110101011011000
00111100101010100101011001011011
10111100110110110111011010000111
00111110100010100110011001010010
00111110101011001010000111011000
00111101010001101111111111110101
10111101011101010101001011100100
00111110000110100110110001001010
00111110000110000111001101101110
00111110001011101100110101110101
10111101011101110110011101000101
00111101000100011011111110100001
10111100111110001001011001000010
10111110001110111001011010011111
10111110011000011010010110011111
10111100001010100100111001011101
00111101011100001010101100100111
10111110000001010111011110100110
10111110001001111110101110000001
10111101111111110110100100100000
00111110001000000011110111101000
10111101010000110000100101000000
00111100111100000011110110001011
10111110001100000100110100000010
00111101010001011111010111110000
10111100110000000000011001001100
10111110000110011010100110110001
00111101011101001110010010000000
00111101100010001001101001110001
00111101100011010110000101101100
00111101000100100011110111110111
00111110011010000011111011010011
10111110011111110010011010110010
10111110000001001010001110000110
10111101101110110010110111110110
10111110001011000010000000110010
00111101000010010010011000110111
00111101100101011000000001010010
10111110101101010111000111010101
10111110100100011110111110011110
10111110000000111111101111100111
00111101001111000110111111101000
10111110101011011010101101111100
00111110001011100110011110001101
00111110001010011010101001101001
10111101110001000110000001111110
10111100110100011000010011010010
10111101000110011111111111110001
10111100101110000011001010100010
00111110000111110100100000001110
00111101100111101011000011101000
00111011010100110111110111000001
00111101101010000000110000000010
00111100110011100110000110100110
10111100100011001010101010110101
00111110100000100010111111111001
10111101101000111110010110001000
10111100000110100011011111111100
00111101110101101000101100110111
00111100101001110000110110110100
10111100111010010110000010010001
00111110010011000010110001110101
00111101101011111000001010110011
00111110001101001110110001000010
10111101001110011001010000111001
10111110001000001001011110100011
00111101100010000001010010110111
10111101001110100100111011010000
10111101001010100100011010010010
10111110000110000000010010011010
00111101010101110110110111111010
00111101101011010110110110110011
10111101111110100101010110010001
00111101011011011111011111011101
10111110000110111110010011110101
10111100011001111001101110011101
10111101100011111000011100100111
10111010100001100011010111100001
10111100001001010010111011010000
10111100111111010010111000110000
00111100111001101001001111010011
10111101001111110100110010001000
00111101001011111011110010000110
00111101100010000100111100000101
00111101101100100100110010010011
10111101100101000001010111111111
10111110000011000110100001000010
10111101100111001111111101001111
10111101110101010100010101111010
10111100011101010010011111011000
10111101100010110101001001010101
10111101001111110010101111111101
10111110001000001010101100111110
10111101001101100111000111100001
00111101110011010000001100000110
00111100100100011010000101011000
00111101110001010111001010000111
00111101100111111010000001111011
00111101111101101100101011000110
00111110001011101100010011100100
00111101111001001101100010010000
10111100111110110111000001100010
10111101011010111001011001000100
00111011011011100110100111110111
00111101100000110101010011011011
00111101101101110110000000000001
00111100010111101011110010111011
00111101111100001110101011001000
00111110011010100101110011111100
00111110100101011110001011010100
00111100000111011001101001101111
00111101101100101111011110110101
00111100101011101100101101000100
10111100010000101000110000111001
00111101001110101010101001001101
10111101101100011001001100110001
10111101110110000101111011111110
00111101001010011110011101100110
10111110010101010010011110011110
10111101101101111011111001100011
10111110001000010110001010001001
10111110100100110011111011100001
10111110100010011101101011011001
10111011101000010011010110001100
10111110000011110010101101111111
00111100101001100001010011010011
10111101100011100110010111010110
00111101010111001101111100111010
00111110000101100111101011000001
10111110101001011010010111100010
10111110110110010011111110100011
10111101111011011011000001001010
00111101111011101110011101111011
10111101110101010100110001101101
00111101111111111000100001101011
00111101001010101111100011101100
10111101110100000100010011100000
00111101101111101111101101110000
00111101111100110001101111010010
00111110000010010110101100100010
10111011100100010010011001100001
00111101101011011111101000110000
10111011001011100011111111010000
00111011110001111110110001111001
00111110001011000010010111100000
00111101011111111001010011110011
00111101100010101010001101000010
00111101111001010011110101001010
10111100101000111001110111010010
10111101100110001101010100011100
00111110000010000111001011000000
10111101110111110111000010011101
00111101110010110100100000101110
00111110000000000101101100001110
00111100011001010100011011011010
10111110010101010100101111100010
10111101110110111011010010111100
10111101101101001101111011010011
10111110010100010101110010100001
10111110000101110010010110101101
10111101110111011100010001100110
10111101111010100100110000110110
10111101000110011110101101001000
10111101101011100111010001000010
10111110010100010001010101000111
00111110010000000001000110100011
10111101101011111010001010010001
10111010100010110011011100011100
00111101001010010001100010101001
10111011100111100110110010011100
10111110000001011101100010011001
00111110001110001110010101110001
10111101111001001100000101100111
10111101010001011010110100000010
00111101011000111100111011100110
10111011101000000101111111000111
00111101101001001111111111110010
00111110000100110000111111110100
00111101010001011110111001000000
10111101010110011111110101101010
00111101000110010110000110001110
00111101101101110100000010011101
00111101000000101011001010010011
00111110010110001110110101000011
00111101111111110010010011011011
10111101101010010111110010010011
00111110101100111000000000010100
00111101111101100111000011101011
00111101100000000110000011000001
10111100011101101010110010011100
00111101001000010010110000101110
10111101101001011111111000100010
10111101100100011010000110111000
00111101111110100111011001001100
00111101110101110110101100101111
10111110010000101110011101001000
10111101100001010100001000000001
10111110100001000101110111100000
10111100111011101000001110111100
00111101000000100101111011011100
00111110001110101011111111100111
00111101011001100000000111111110
00111101011111010101101000110111
10111101111100101000101011010101
00111101101110111001111100101111
00111110001110010000010111000101
10111101101011011101110101110000
10111101100011000000010000010101
10111101100011011011011101000000
00111110000001000000010111010101
10111110010101001001000100011010
10111110000101011000111001110010
10111101101111101101001000111000
10111110000110100101001011001101
10111010111011101000000000000100
10111110001000010100110010000011
10111001010100100010100111111010
00111101011001010100111110001101
00111110001000001010010011100010
10111110001011011000100101011001
00111110001001111010100000110110
00111110000101101110110101110011
00111101110001110011011001111101
00111101111111110100110011101001
00111110000010111010011101011011
10111110000010100110011111100011
10111100011111011110100111101100
00111101110101101101011000000101
10111101001001111110010101111100
10111101011011111110101000111111
10111101101100100001011010011010
10111110000111011101111010000011
10111101101000111001100011111111
10111101000001101000110011100111
00111100101000110011111010111001
00111101011000001111010100011001
10111101100001010111001100011010
10111110000001011000001110011110
00111110010000011000110100110101
10111110001000000000011111101100
10111101001100011111000000100100
00111110000010001011001001010001
00111101101101010011111001101111
10111101101011010011001001111001
10111101100111010101101110011010
10111101000010100110001010001001
10111101010100100011101100000010
00111110101001000101110111001000
00111101100111001111011111001100
10111100110101000101111010100110
00111110100101100010010011010010
00111101100101010001010000111000
10111101100110000100101001111101
00111101110011101101011001001101
00111011000001111101101111111111
10111100110100010110110101100111
00111110100001011010001000111101
00111110000100101110000010000001
00111101110111001001110101100001
00111110101011011101100101001011
00111101000001111110101001001101
10111100111110101000001100000011
10111110100011110101101001111000
00111110001101111001010101011001
00111100100010010101011110110110
10111110000101100101101010010110
00111110000001001011111000010001
00111101110101011011111001011001
10111100010011000110011011111101
00111110010011110100010000110110
00111110010010011001110110110001
00111101000011000001010000011011
00111110000100111011010010101111
00111101110011101010100110100111
00111101100110101010101000000100
00111110010100101001100100001011
10111110000011101100100010000100
00111110010010011001111110101110
00111101101001001101111001100100
00111110011100000111011011111101
00111110100100110100010000000101
10111101111111001001000101001001
00111110010000011100101101110100
00111101001110110100011111001000
00111101110001110111101101110000
10111101110100011100110001001011
00111010111011111100000011110100
10111101101011011110100001111100
10111101100000100100111000110100
10111101110001101111000000011111
10111101101000101001010101011110
10111101101100000000001000100001
00111100110001000100000000011001
00111110000101010001100011001001
10111101010111101000101011000111
00111110000110110101010101110010
00111100001110011001011011100111
10111101111111111000010011111011
00111101100010001101011001011111
10111101000110011011110000011100
10111101111000010010100000110101
00111110000000100100000001100111
10111100101011110000100011001010
10111101100111111001101011110101
10111101110010100100101001101000
00111101101100001100010110011010
00111101110110000001000101001010
00111100000000000111100110111000
10111110000001110011011110101101
10111101011101011110000100011111
10111110000010001011100000010001
00111110000011010010000010011111
00111011101000111010110001011100
00111110000110001011000110100110
00111011110100100111101111011000
10111101110110011011011110000000
10111101111101001011110111100101
00111110010000010100010111111111
00111101010101001010100010101111
00111110000010001111010111001100
00111110001010010000110111100011
00111110010111011101010000110010
00111110010101010011000000011000
00111101000100000010011000111011
00111101101000111111010011110010
10111110001000101100000100011011
00111110100111001101111100001101
00111110010100100011010100011010
00111101111000001110111001111111
00111101110101010111001011110010
00111101111011011100101100100110
00111110100011101000111001010011
00111110011110010111001010110010
00111100000000010111100001101000
00111100100010011101001101010100
10111110101010111110000001001101
10111101110010110011100010011001
10111110010011100101011100011010
10111101100010111001001100010010
10111110000110110100011101010100
00111101110000101011101010000111
10111101011000111100001010101111
10111110001100101101110100001100
00111110000110110000010000111000
00111010101111101001001110011110
10111110110100100110100111010010
10111110101010011111010100111110
10111101010001101101101001101010
00111110000111010111001011011111
10111101100000101011111111011101
10111101110111001111001111010001
10111101110010000110011000100111
00111101011001110011001110101111
10111110101010001101000101101000
10111101110011010000010011011000
10111101101010111110001000110111
00111101101010001100011011001010
10111101111100000110000101001101
00111101100010011000101101110111
00111110001001001000010001110011
10111101100000111110010010110011
10111110000101111000100011000101
10111101111111101110000110010010
00111101101001001010011000111101
00111101110101001001100010000011
10111101000111000111111000101001
00111101101001011010011100110111
10111110001111000010010111010000
10111101110100001110000111000110
00111110001010001000011001010001
10111110000111110010010100101000
00111110010110111011110011110001
10111011001101010101011100110000
10111110011011111111010110100000
00111110000001100000100111011101
00111110000000110111111111011111
00111101111000110000011010000001
00111101011001011111110110010100
00111101000010010000011111111010
00111110011010111101111011101000
10111101101011011001001110011100
00111110001011000011010011011100
00111010000100001100100001010010
00111101000111101001011110000000
10111101000100011110000001110010
10111110001000011010001101101100
00111110010011101111011110011010
00111110001000001111010011111100
00111011001011000010011000110011
00111110001110011111000101101010
10111101100011110100011001010111
10111110000100011101001000111001
00111100011110001110101011000111
00111101000000001101010001011001
10111101111000101001101101110110
10111100001110011100100000111111
10111011110111000111010010110111
10111101110110101111001111110010
10111110001001001011101001111011
10111101111010100111011011000100
10111110011010010100001101000100
00111101001010010001100010110001
00111100110010111001101000001011
10111101100001111111011001110000
00111110001100100011110111111110
10111100001000010111111001000110
10111110100010101110011001011110
00111100100111011110010010010101
00111110011001000000011000010101
00111101101101111000010000011010
10111101110100100101101010110010
00111101011010010111000001000010
00111110001111001110110000110101
00111101101111111111101011110011
00111101111010101111011010111010
00111010110111001011011111000001
00111110100110101111000111110010
00111101100110100111000001011101
10111100010100110011011000000010
00111010011101110001110111010000
10111110001011001110011000010010
00111110010101111001000001111100
00111110100100001110000001000100
10111011110110000011011111001110
10111110100000001001010010001000
10111100001100010110010110011010
10111100001110001111010001000010
00111101010111000100111001110100
10111011101010110110011010010001
00111011011001101101101000010101
00111110000000110000011101100100
00111101100001111000000010010100
10111101111110000100010010100010
10111110011010010111111101101110
10111110011100000011001000110010
10111101110110011011010110100111
00111101101101111000000011001000
00111100111011110011110101110001
00111101100100110011110100101101
00111110001100000001101111001011
00111110001111111011001011101110
00111100111001000010001011101010
00111110010000010010000110110000
00111110011101011001001010010111
10111011010001001100011111110111
10111101111011110101100010001111
00111110000010110110001001010100
00111110001010110100000101000111
00111101010010101001010100101110
10111101001011011011010100000010
10111101001011001010011011011011
00111101000010010111011100011101
10111110000111100001111100001111
10111110001010110001101101001000
00111101110101000001000001000100
00111101110100010111100000111101
00111101010111110100100101110000
00111110000000010110011101011010
00111011100100010110001011100110
00111110001110010000010001000011
10111101011011011100001101101110
00111110010000011100000001010010
00111101110111010001000011110110
00111101110101110101011101101010
00111110010010110111000001111110
10111110010001011011101100111000
00111110001001011111001101010000
00111110000011000010010100000110
10111110001000101110000110100101
10111100110110000100110111100110
00111010101000101100111001000100
00111100101110100101010000101111
00111101001000110010110000011010
10111101111111101101010101001110
00111101000001001111111000010010
00111101111100110010011000000101
00111100110101100001101100100100
10111110000100100001010000011011
00111110001110011000110111110101
00111101110111010101001010100111
00111110010011010010110011000011
10111101100110010100011010111001
00111101111000110010001100110010
00111101000111111100011110111111
10111101101001001110011111110010
00111110000001000101001101001110
10111100101111011111010101100111
10111110001101101110101011111000
00111100100111010111011000010111
10111010101111110010101001000000
00111100111100111010111110000010
00111110011010101110111011100101
00111110000111110001111000100110
00111101101101011110101110010001
00111110110101100100000101110000
10111101111011011001111011000010
00111011111100101001100011001101
00111101101100011001001011010111
00111110001000010000011001100101
00111110010000100010101010110100
10111110001000100111001110100111
10111101000010111001000011100010
10111110000110000000011010011010
00111101011100011111110101001011
10111100100011000000010010101010
10111110000110000100100011110111
00111110001010110111110101100011
00111101111110111100011001000010
00111101100111011000010000100100
10111101011110011011011100000101
00111110010000100011000100011010
10111110001000100100001010110000
00111101110111111101100000010110
10111110100000110011100111010111
10111110001010101111000101111101
10111110000111010101111010001011
10111100111010001011011100111101
00111101110110100000101010000101
10111101010110111101111101101010
00111100100111010111101110110010
00111110001100000111111101100010
00111110100000010101000010101011
00111110001011000000100111011110
00111101111100110110010011110001
10111110000001111000111100110001
10111110000111000001101110110001
00111101011011010011110111010001
00111101101001100011110010010101
10111101011001010011101000001110
00111101100001101100110101010010
10111110001000010010001000100110
00111110000101101011101011010110
00111110011100001100101110111011
00111101011011010111000011000000
00111011001000010011101101101101
10111100100011101000100000000010
00111101011111011011111011110010
10111110000011100110000111100001
00111101000010111010111111110110
10111110011100111001011001010010
10111101101100111110011101011110
10111011100000101101000011001101
10111110000100110111101001100010
00111101010111011011100011010010
10111100100010111010000100111110
00111110101011100101010011011001
00111101100010000010100100010001
10111110000111000110000011000010
00111101010110000010011000001110
00111100100011111111101101001101
00111101010010010011111001000100
00111101001110000011011101101010
00111110000000001101110110110110
00111110001000111100011000101001
10111110011101110010011110110111
10111101101101110110011011110100
00111101111011000101011000010110
10111110000000010100100001010101
10111101001101111000111011110110
00111110001000000011010000010001
10111110101111110001001111010000
10111101001010101001010011111011
00111110010000111110001110111100
00111011101011001011101010100111
00111000001011010011100110101000
10111101010010100101100111101011
10111101100010100000110110111000
00111101011111110011110010011101
00111101010010001101010001010101
00111101110011101100110010110100
00111101110010111101100101001101
00111101111110011000111110111001
00111101001010000001110111011101
10111011100110001001100010000110
10111100111010001110011110110101
00111100110110011001101100001010
10111101100100101100101011110111
00111100110111011001000011100100
10111101101110000111100011010110
00111110000110000000111000010011
00111110001110001101111000110100
00111110010000100011101000111011
10111110000000010011010000011101
10111101110010100110110000010100
00111101001110000111011100100001
10111100110101101101110001100111
00111101011111110011000111001001
00111100001001010010010001001111
10111100100011010101001001100011
10111110000000110011100101101000
10111110001111101000110000000010
00111101101110000101011101110000
10111100111101000001010001110010
00111110000110110000000010110110
10111110100001001110111101100010
10111101101000111100100001010011
10111110010011110011110101101001
10111101001111010011010000011110
10111100100010001111000110000110
10111101101101000110100101001100
10111101101101010110110110001111
10111100000010011110100100010111
00111110000101010110100111111101
10111110100000111011001001010101
10111110100110000101000000011101
10111110010100110011111110100011
10111110011111110101111000101010
10111110100011111111010001110001
10111110000001101010110001011101
10111100011011110001011100010000
00111100001001001010110100000001
00111101001100100001110101010111
10111101101000101111101010101011
00111101101110010111000001101111
10111101101111000011101111111111
00111101100010100011011100100101
10111101111001111110010010100011
10111110000110111111010100001000
10111101011101001001100111000010
00111100111001101100001010100100
10111110010101110000000010111110
00111110000000110100110010000110
00111110010010110100001101011001
10111110001001101101100110111100
10111101000100100010110001101111
00111110010000010101101011100111
10111101001101111001111001110111
10111101111110100101110000110110
00111110000010010111101110011000
00111110001010101010000010111111
10111110101010001000101101000101
10111101110110110001110111010001
10111110010100111101000111011110
10111101011111101101101101110100
10111101011111001111011011010110
10111110010010011011011100010101
00111101011100000001010010010011
10111100100001111001011101011100
00111101101100110110000010110000
00111110001110001100111101010101
00111101100011001101010101001111
00111110011010000101010000001010
00111100110101000110100001111001
10111110010101111010100100110000
00111101001011110111000011110010
00111101000101101110100101100011
10111101110101101000000101001010
00111110001110011000100010000111
00111110001011100001101110101110
00111101110111011111111111010000
10111101101100100100010110011111
00111110001100011100001001010101
00111101111001010110011100110011
00111110010000010110101101110101
10111101101000111001111000100000
10111101011000101111101000011101
00111101111100000110011011101000
00111101000100100011101010100111
10111110010001010111100010001101
00111110000011000100000000011111
10111101000010010101001001010110
10111101101110011101111010111110
00111011000101000011000111101001
00111110000101011111000100011000
10111110001110100001011100001101
00111101001110010100111100100000
00111101100010001111011011111000
10111110001011000110001110111111
10111101100010110111001001110010
00111101000101001110001110110000
00111100111010011001101010001010
10111110001101111111100110101001
00111101010010111111010111001011
00111100100101010011010110011100
00111101110000011110000100000100
00111110101010001111101011011101
10111110010101111000011111010110
10111101000000010000111011101000
00111110010000101111000110101000
00111101100001100101100110010001
10111101010001010101101001010101
00111110000010010001000010110011
10111101100100111110000100111110
00111101001101010001010101100100
10111110000001110010010001110110
10111110001000001001100000010111
10111110001010011010101100010011
10111101110001111010011010111010
00111110010011110000101011001101
10111101110010010011110011100111
00111101110101001000011000100100
00111101101110001010010100110111
00111110010111100010000111111010
10111110010100100111111001111010
10111101010010011100100110010011
00111101100100100100011011101000
10111110011110000010010001010000
00111101111101101000101110011000
00111110001010011001101111111101
10111110011011111100001111010111
10111101111011010111011011000110
10111100100111100000001001100011
00111110001001010000000010111111
10111110001010010111110011011011
10111110001110101110100010001110
00111110100001101000101111101100
10111101001000110100010100011111
10111101010010110001111111100100
00111101001101010101101000011110
10111100111011011111000000010001
10111110000100010100100111001001
00111101000010010100011110110011
10111110001011110101111011011110
10111110101010100000011000110110
00111011110011101111000111011010
00111101011111000111011011001000
00111101100001111001011011000011
00111101100101110011000011110011
10111110001011011101101001000001
10111110000001000000000110001110
00111110001010000101001101111001
00111101010010011011000001000010
10111101100010110011100110100101
10111100010011001010010101001001
00111101101011001001001000110010
00111101100000111011011111100100
00111101001100010010001111100101
00111101110000110100010110010110
10111101101000110001001011101110
00111110000010001100010100111100
10111100100000000001100110001110
00111110000001101000011101111100
00111110000010111111010110100110
00111110010000011100111100111011
00111101110001011010001100011000
10111101011010000101010010010101
00111101010100110101101101110011
00111101011100111001010000000011
00111110001111110011100001111110
10111011101000110011101000100000
00111110001101011110010110001100
00111110010010000011110000011100
00111101011001101000100001111100
00111110001000101100111000110110
00111110000111001111100001110001
00111110000001010000111110000011
00111110001100101101001101011011
00111110000001011101100010110111
10111101110010100011001100001100
00111110100010100111110011011100
00111100011001101010111001011000
10111100100101111100001100100100
00111110010110101001110110010000
00111101110011010010011000111000
00111101111110000001011010001101
10111101110110101100010001001000
00111101101110011100101100101110
10111101101101000100001010101011
10111110010001000011111011000001
00111110000010111110100100010110
00111110000101101011111100101100
00111101001011010111011101010110
00111110000001000011010010101110
00111100100100011101001101110011
10111110001010001000100000101100
10111110000110101000110100010000
00111010000010101110010110010110
10111110010111100011010100111100
10111110001111000000001010011111
10111101111010111010011001100011
10111100101101100100100001001110
10111110001111010010111101001100
10111101110010000111010100101011
00111101000110001011001111000110
00111101001101001000110101101001
00111110000001001010101101000100
10111101011101011000111110110011
00111101110110101110010000111110
00111100101100001100110011011010
10111011111101110101011000100000
00111100100111001010000100001000
00111110000001010011101101011101
00111100000111010100011111010000
10111110010011111111100110010001
00111101010001111001011010110111
10111101100010010001000111000000
10111110011101110110100100110111
00111100101111100110001100010101
10111110001111011001101001100111
00111101100100101010111000111101
10111110001101001110100101100001
10111101100000010000011101010001
00111101110111010101010110110111
10111101110011011110010010000000
10111101001101101000001001110101
00111100000111101101001001110000
00111100100101010101100111000010
10111110000110001010001111000000
00111101111111001111111001011010
10111110001000111010011000111111
00111101100100011010010101010011
00111100001001000010011000000010
00111101110100110001100010001001
00111100101011011111010011011001
00111101100101101100110111011010
10111101001110101110000000011001
10111101101110110011101100101110
00111110000110010111110010110010
00111110001011001000011101110111
10111101001010110110000110110111
00111101111001100101100100001101
00111101110111000111111101100010
10111010100101101100010000000000
00111110010000001101101111001100
00111101111111101011011010011110
00111110011000111011001001010000
00111110011100110110001001001101
10111101000100010010111000111000
10111010101100111010101000011011
00111100100000100000001001100010
10111001111111010000100100000100
00111110011110100011111111110101
00111110010010001000001001000000
10111100100101011111001110000001
00111101111101101010101111111001
00111101100101100010010111110101
10111101001000000011110001001101
00111101100100011100001011100100
10111101010111010110111011010000
10111101110000010010011000001010
00111101100101011101011100101101
00111110001001100100110011011101
00111101110110000011001001110100
10111110000100011010101000101101
00111101100110000101100000000000
00111100111000101011001100100111
00111101010111100000011001000010
10111101101100010111101100001010
10111110001010111110011111110111
10111100011111010000000001100101
10111110010011101010010110001010
10111110010000111001010100000100
10111110011011110100010010001110
10111110000000010101111001010101
10111101001100111101100011010010
10111110010110001110111011101000
00111101111110110110101000110110
00111101101101011101000000100110
00111110001001111100001000000010
00111110100001001100111011101111
00111110000010010110101110101000
00111101010000100011001110111001
10111100111100111000100010011111
00111110010110101000110110000011
00111110000111110000010010011101
00111100011100111000100000100011
00111100010001000111010110001001
10111101001101100101000000001000
10111110000101011000101010010000
10111110010001011010000001000110
00111100011111110010011101010001
10111101101000101110111001011001
00111101110111010110001011100101
10111100000100110110110010001011
10111101100101101011010011001100
00111101101010101000010111001010
10111110000111101010011101000001
00111100110001011101000110101100
10111110000001011100011100011101
00111101101000110001000000101010
10111101000001100111000000111110
00111100100010100000110001101000
10111110001100110111001110110001
00111110000100011010000010011011
00111101110010101110001010111001
00111101110110101101101110010011
10111100100000101010011100001110
00111101000001001011111101010010
00111110001010100111000101010101
10111100111110100000111111001001
00111101001010111101100010011100
10111100100110100011000011111101
10111110000010111010100000101111
00111100111001000111111000101011
10111101000010100001010110101100
00111101001000100110101010100110
00111011100000100011010000010010
00111110000111101110110011000100
00111110000000011100101010101010
00111110011011110110100010011011
00111101011001010100011011000011
00111110000110111011100101100101
00111110011100101110011000100010
00111110010111011011010101100000
00111101110111010001111001000110
00111110011010011010111111011010
00111101100000101001010101101111
00111100111100110101001100101111
00111110000110011101101001111110
00111101101100100011111001111010
00111110010110000101011110001011
10111101110110100001000111000000
00111110000101001111100001001010
10111110000001100100110101111111
00111101100011010000011101111010
00111100010010101100100110110010
00111100111111111001011100100001
10111101111011100110100001001011
00111101100101111010001011011011
10111100100110101110101111111101
10111110001100101010101101110010
00111101101101001000001001010000
10111101000110010111111110101011
10111110011110111010000110100001
10111100101110100100000101101000
10111101110101001101010000110101
10111101000100111101111000011011
10111110010111001110010110101101
10111101010101000101101001100000
00111110000100110101001111110011
00111100101100001101111101001101
10111101100000000011000111100000
10111101000000010011011010110000
00111101100001000110000010100000
10111101010111110101001010010010
10111101000111001101000011101011
00111110000101010010101010001000
10111101110100001111001111000110
00111011101100001010010110111010
10111110010101111111010110001101
10111110100000111010101101111110
00111100010101111000011111111101
00111110010100101100110010010101
10111101011011111100011011000011
10111101011000001100000100111010
10111100100010110111100011010001
00111110010111001100011001110100
10111110001000111001110011011111
00111110001100001011000000010110
00111100011010111110110100011001
00111101100101011111100011110000
00111101101011110100000000101100
00111101101111010100001001011001
00111101101010111101000010001111
10111101100010101000101001101011
10111110000001101100001100010110
00111101111000111011000111000111
00111011101111000111001111101101
00111101010011100111110111011001
00111101001000111101010000101001
00111110001111000100101011001001
00111101010011011001111000101000
10111101110111110000101110011010
10111101001011000101001000110011
10111101100100111010111111110001
10111101111101010110011101100101
00111110000110110110010111111001
10111110010110111100100010111101
10111101000110110000010010011110
10111100101110000001110000011010
10111101110011110011001010000001
00111100010000111110011111100100
00111011101111001011111000111000
10111110011001010000111001110011
00111101001010101001111001100111
10111101111110110010100101100100
10111110001001101000111000010010
10111100001010111111111001101110
00111100110111101101000110011011
10111110000110000101100001001110
10111110011010010011001001100000
10111101001011010000011011001010
10111110000111010101001110101000
10111110001101000000001001101100
10111101101011100100000111101010
00111101010001011110110011100011
00111101111011010010111111110110
00111101010101011001011111101111
00111101100001110001101111011100
00111110000101001111111000011001
10111110000100101000111101111010
00111101100100100010100111011101
10111101110111101000101101001101
00111110011110111100100100000110
00111101110011010011010011000101
10111101011101100100000100000101
00111110011111100011010011111010
00111110010010100011111110011010
00111110010111000111001010011000
00111101100001001011001001000101
00111101101111101110011001101010
00111101001001000000010101000011
10111110010111000000101010100010
10111110001100110101111100001111
10111110010100011111011010010010
10111100101010111110010001110001
10111110000100110001001101000100
10111101011100011011001101100101
00111101011110100011001000000011
10111110011110101101111100011001
10111101101000101000101111000100
10111100101110111111100100111011
00111110001000101101100100010100
10111100110110100110011011100110
00111110001010111111010100111111
00111101100101110010101001101101
00111101001111101111111011000011
10111110000100010001111011101100
10111110001101100100101001011101
10111101110011010100011111000110
10111101101010110110101100010100
00111110001101101011000011100100
10111101101011100010000101001001
10111100111010101000011011110110
00111101110111111101100001010001
10111101011010001000111011011001
10111101110011001111000000011010
10111101101001000101111010001000
00111101100100110010001010000110
10111101010110010000001010000010
10111101101000101101110110100001
10111110000000001010000011001100
10111101110110110000101111110001
10111101111101011001001000011000
10111101111111010010010000111000
00111110000001101101110000001100
10111101000010111110010110011001
00111110011001011000001001011100
00111101101010011011010010011001
00111101011111111010100001100001
10111100100000100010101011110010
00111110000111010000011010011000
00111101000010110101101111011010
10111100111100010101110010101100
10111101011110011010010101101111
00111101010111101010110100000100
10111101101011100111110111001110
10111101111001000010011101001101
00111110011011101000101101110110
10111100010101010011001100010101
10111101011110111101101101110010
00111110001000000111111100101000
00111010110110010011001000011100
00111101011001010010111001000011
00111110000111100111111000111100
00111110001100111111110010011101
00111110001100100000010111010001
10111110010110111111000111100110
00111101100011110011111110011111
10111101011100001100001100001110
10111110000110001010101101000111
00111101011010101111011001101010
00111110010010001111110001101000
10111110000011010010010111001001
00111100010101110011111110100011
00111101110100011001011010010001
10111011110010111100111100111000
10111110101000000100100100001011
10111101010001010110001000110100
10111100110111101110011000100101
10111110001000001110111010000111
00111101100011011110100011000100
00111100000001000111000101100000
00111110010000100101011100011100
00111110010101001010111110110100
00111101111001100101101100100111
10111011000010001010111110001101
10111011011101100111001110110010
10111101101010011000100010101101
00111101111001101111011010000000
10111110001100000001000101101111
00111101100100111110110000101010
10111101110010110011010010011110
10111110000100001001111110010001
00111101011101100100001011101001
00111101000000010111010111011101
00111101111101000000111010110000
00111101110010010000010011110111
10111100100101101100100111110001
00111101101101010111000110111000
00111101110101011000010100101011
00111101110110110000101111111001
10111101111011100010010000111101
00111101111101000011101010111110
00111011110011101111101001010000
10111011110100110010110111001011
00111101100101011110000110111000
00111101001000101110001100101000
10111110000010010110010001111101
10111010011110000111101001000001
00111100111010110101111000100010
00111100100111000001110011001001
00111110000001010001111101110001
00111110001101101110000000000000
00111110000000000111110000100010
10111101010000110000000100100011
00111101010110001111011110010001
00111101000001101100101010001011
10111110000110111001101101100110
00111110000010000001111000110011
00111101011111010100010100100110
10111101110101100110100110011011
00111101111110001000001001110110
10111101110100000110001100101010
10111101111011011111100001111111
00111101110001010111101101100110
10111101101011011010110011000100
10111011110110011010110100100001
00111101111111101001010101001101
00111101100100000010101011000110
00111101011111111000110011000110
00111110001101001000101111000101
00111101100001001111000010000110
10111110000101011011000000011110
00111110000000011000000001111110
00111100110001100010001110001111
10111100100010100001001011010011
00111100010100010101010000101001
00111101010010111010010100011110
10111101010100010101001101010101
00111110010110110000100110110001
00111101110110110011110010111001
00111101011011001100101111011100
00111100000111111100011110010111
00111110000101110001001010111001
00111110010110000001111000100010
00111101111010111101101111001111
00111101101010101000000110000110
00111100111110100100001001010000
00111110001100111000011011000101
00111110010110011000101111110010
00111101100000111101111110011101
00111110100101001101110101110000
00111110100110010001110101001110
00111110100000101001011010011111
00111101111100111111111111011001
00111101110100111000100101101100
00111110010001010111000110100111
10111101100111010101110001111111
10111110001100010010111110010011
10111110001111100001110000001101
10111100011000101010010100001010
10111110101100110110111001011110
00111101001100010100010111100111
10111101011101010011001100010100
10111110010011101001111110000011
10111110010011111001001010011111
10111100100000000100110010011000
10111110011011001010010001101010
10111101100101111100111110010010
10111110010001111010110100001010
10111110110000011011111100101001
10111110011000001011111011010001
10111101000001110100110111100111
10111110010100111001111101000011
00111110111101110010100001011111
00111110010010100101011010110100
10111110010001110000110011001101
00111110000110111001011110001000
10111101101110010100101000101110
00111101100110110100001011111001
10111100111110111101110001001000
00111110001000110011000111111001
00111100111000100110100100110101
00111110000110110101101111000101
10111101111001001110001110011111
00111100011011100001110000011100
00111110000101000010100110011011
00111101111110110110010011110101
10111101100000001100110001000111
10111101011000000001110111010001
00111100111011110000101001100100
10111110001011111011001011010011
00111101101011101110100101110100
00111110000000110000101101011011
10111110010001001001100001000111
10111101010110001011100100011111
10111101101101100101010100001000
10111110100110001011011111011010
00111110100001101000100110101100
00111101101101110000000001110010
10111101010100100001010000110110
00111101101001101111111111101110
10111101011001111000111101101111
00111110010001110111100000101110
00111110100001110100000000000100
00111101101001001011001001000011
00111101010110011100111011010001
00111110011101011000001101011100
10111101100100000110101101001000
10111110100010111000001100101001
00111101111010000011101110110110
10111101100111101100001100010001
00111011100001100001111111011000
00111101000110011010111000100000
10111101110000011010010111110100
00111101110000110000010111111111
00111101100110100011110100010101
00111101100101110101101000100000
10111101011001001111000111101110
10111101000100011101111100100111
10111101110000100000011110001111
10111110011111101100111010110111
10111110010000101000110110110000
10111101101100101110111101100110
10111110100101101101010111010100
10111110001101000010111000010110
10111101111011100111101111001000
10111110100000000001100110101000
10111101011101101010100100110001
00111101101010111110000001001000
00111110010110111110100101101110
00111101110101111010101011110111
10111101101110100111000111110111
00111101100010110100000000110110
00111101111101100001011101111000
10111100100110101111011110000101
00111101001110000010101001011110
00111101010111000110000000001001
10111110001100111001111111001000
10111100110110011111110111101001