10111110001001001010011101010100
10111101110110010000010000101110
00111110100101110000011011101100
10111101000110110110001010011011
10111110010001111010101100101101
10111100110001001100111110111100
00111110100010010110100110100001
00111110010101111111111111101101
10111011011011110000111100110101
00111110000011000011100001010111
10111101110100010111010111111110
00111101111110000100110110110000
10111101100000101111000001101110
00111100111010001011001111010111
10111101111100001001110111011000
10111101001001110011000110001001
00111100101101010010100111100000
10111110000001011100110000110011
00111110010011001110101101111010
10111100010100011001111110001000
10111101100101110110100100110111
00111101000110110111110011111100
00111110110100010111100111111010
10111101110110000000101011010011
10111011111011111111111110010000
00111110000111101110011001110110
00111110001010110110100101001100
00111110010110100000001100110001
00111100101101010000111010100000
00111110010110001100000000000111
10111101010010110001001100110010
10111011111111111000101000000000
00111101111101101100001010011101
00111010101110001010101010100110
00111100110101011010110110011111
00111100100011101011110010101011
10111110100110101100111000111110
00111100011110110000011000100100
00111101110001011000011101101111
10111100011110000000011100010000
10111110000101110100101001001101
00111110000101010111110011110110
00111110001110110111000100101101
00111101011001000010001010011000
00111101010011101011000000001100
00111100101101000001100000111011
00111101010001111010110000001000
10111110001010101010111011110001
10111110000110010111100111001100
00111101100001110001011110111001
00111100100101101010101010001011
10111110001011111100111101001101
10111110100111100010101000000101
10111100100100000100100111010000
00111110000011001010001100001101
10111101100000001100000101100111
10111101010011000111000011101100
10111110000000010001011010001010
10111101100010110111110101001110
00111101001110010011110101100001
10111100111111011100110000000010
00111110000101101001001101100011
00111101000001100011010000100111
10111101110111101110000110011011
10111110000111000101110101111110
10111100110101001110010011101000
00111110010010011110101100100011
10111110001001100010010011010011
10111011101010011011011001111100
10111110001011101100100111100000
10111110010011010100110111110001
10111110000001000101000011011110
00111101111011111010100011000100
10111110000001001100111101001001
00111101101000010100010110000001
00111110001100000111111011100011
10111101110010010000000011100110
10111110001101111010100111000100
10111110001100011010010000000001
10111101011110100000110100100111
10111101101000011010001000011000
10111101001110101111111000100000
00111101111111001110111010100011
00111101011111000001100111110000
00111101100100110111010011000011
10111101100100010101101000111011
10111011001110010110001100111010
10111110100100101101111110101011
00111101100101111011110111110100
00111101101001011010010100111100
00111110011101010000000011000100
00111101100011011000100111010010
00111101110000011010000011011100
00111100111101110100001011100101
00111101010001101110100001001111
10111010111010100010101010111110
00111101010101110010101001001111
10111101100001110111100101011000
10111110100000010111011011111001
10111101011000000010010001100111
00111110011000011010111010000100
00111101100110100100100010111000
10111100000001010011111010011001
10111110100111101010100110100110
10111100010001000001000100011010
10111100110011111100101010010000
10111100010000100000001001101111
00111101100011101011110001010110
10111110010001001001111000110110
00111101000110101011110111111100
00111110000001001000000111001100
00111101101111110001000001001111
10111101000001011011101110011101
00111101011110100110100110000010
10111110100001111110010100001111
10111101100011001110000011100001
10111100110101110110111110101011
10111101101010000111001110001010
10111101110011011111111001100001
10111101100010011100011111110101
10111101101100100111001100010110
10111101111011110000110011001010
10111101101110110100111000110010
00111110010100001100110000000111
00111100110010100101001001101000
00111101101000110011011110011011
00111101110011111111011010011001
10111101100111010101110011111010
10111110001101101110101111001011
10111100111010110000101000101000
00111110101011111011001001010111
10111110100101010111101011100001
00111110000101011011010011011111
10111110000100010001111101110100
10111101010011110011011000110010
00111110011110110110110111011010
10111100011110001111010101110011
00111101000000110110001101010010
00111101101111111001100100001100
10111100111010010010010110001010
10111101100101000111101101001101
10111101111110110000100001010011
10111110010100010000111110110001
10111101010110100101110110010101
10111110110010000111011111111100
10111101101011110111010110000110
00111110011000111010010011101101
10111110010111011111011000000011
10111101000100101001000101011001
00111101001000101100100011111010
10111110000010110101010010010101
00111101101111111101001100010010
00111110000110000001100101101010
00111101101000110000101001100001
00111110100010111001101010101101
00111101100000011010110100001100
10111101100110100110010101011101
00111101000010101100111001000100
10111101100001011101000011111111
00111100101001001010101100010100
10111110000000100100100000011110
10111100110100111111011100010001
10111101110111111100100010110010
10111110011101000010010110010100
00111110100111101010011011110100
10111101110111101110100101011110
00111100101110010011000001000100
10111101110100110011110100110010
10111101000110000111100011000101
00111101010100111100010010111110
00111110001100011000101101101110
00111101110000000111000110100010
00111101010011000011110110001110
00111101011011001111111000011100
10111101110010011001110001111011
00111101010000010100111110100001
00111101001111010010100111111000
10111101111011111010101101011010
10111101000001111111001011010110
10111110000001000011110100011001
00111100100011100011000101111100
00111101001110101000010110101111
10111110100000111110111110110111
00111110010001000011001011011100
10111101111111001100010000010100
00111100111000101101111000000100
00111110000100000101101011101011
00111101100001010001101011110110
10111101111110001001101101000100
00111011001101100000100001101100
10111101111100101110001000101011
00111101010101100010111110110011
10111101100000000101001001011010
00111100101101001100101010111000
00111110001000101000010100101010
10111101101011010110001101011100
00111110110011011100100100000100
10111101011011100101111110111010
10111100111111101100010010100101
00111110011010111100000111001101
00111101111011010011101101101100
10111101110011111101110110111011
10111101010110111010000011101101
00111011000010100000010111000000
10111101101001110010100001000010
00111100101100110111011111010100
10111101010101011000110111011100
10111011110101110000111111001000
10111110100110000100101110000110
10111101001110000010010110101100
00111100111010110000110110100011
10111101111111011010111001011010
00111110010101110010000010101100
00111101111101101001110100110011
00111100110110100011100100100011
00111110100000100110101000100011
00111100101111100010000000010110
00111100110001101011000100110101
00111110011111101100101100100010
00111101110111001001111101001011
10111110000001000010010101010000
00111101001000101001011100000101
10111101111001110110101000011000
00111110001000011110011001011101
10111110100011100011011011000010
10111101111000011000111001111011
10111101111101010111111110110100
00111101101111110000001011100000
00111110110101001110110000101110
00111110000101110011111111000010
00111101000001011110010110100100
00111101100101011010111000111111
10111101100000110000101000101110
10111101110111010101101010011011
00111110000000110110110011100100
00111110011001111111000100010111
00111100101010100100011110010100
00111110011111011101011101010100
10111100100010011000011010000111
10111100101111111101111010111110
10111110001100100001100000110011
00111110000001010100011100010100
00111101011000001111010001001011
10111110000001111001110001011011
00111101111001101110100100001101
10111110001000010100110110111011
10111101110011100111101111101011
00111110011011110111110100011101
00111011101000010101101001111101
00111110000000101010100110000001
00111110000001010011001010110110
10111101010000000000100000110100
00111101100100011100000010111111
00111110001101101011101000111000
10111100010001001110111101000101
10111110001000000110001101010001
00111100001111010001011010110010