00111110011010111110101101000100
00111101011000010010001001010101
10111110100011010011111011000011
00111100100111011000101001000111
00111101101011001101100010010011
10111101111111111001100100111011
10111110001101111100110010000100
10111110001011101100110000000010
00111110001000110101100001011000
10111010101011000011101000010011
10111101101010100111100110011000
10111101101011001001111101010101
00111110001000101100010000110111
10111110100000010101111100100001
00111110000010110101000111001001
00111101000100000011011011100011
10111101010100100001010101110001
10111110000110111110010111110111
10111101111011001000001000111010
10111110000101100011000010001111
00111101010011000011001110111000
10111110001111001000001111011011
10111110011110010010000110101011
10111100101100001011001000111010
10111101011100011100110111010110
00111101100011101101001000001011
10111100000111110110111010000010
10111110010011100010001111111001
00111101111111101000000010111101
10111101101101000100101001110000
10111101101110111001010100000100
00111110000010000110010101100100
10111101000001000101000001000011
10111100101001100111000110010000
10111100000101100001000010000000
10111110001001010000011110000001
00111110100110001110000011111100
10111110000110010110000100100010
10111110001111001100110101110111
00111101100000110010010100101111
10111101001001001110010010000001
10111110001010001000101000001111
10111110001000001001001111111001
10111110010101111001110000110100
00111110001100000001110101001001
10111101100111000101000100010100
10111101101111001011000110101010
00111101111001000111010000111111
00111101001101101111110001101001
10111101000110011111110001100100
00111101100001011111001111100100
00111101100001110100100101011100
00111110011111111111011001101000
00111101101011011001100100001010
10111100100110011000110011010001
00111101110010000001100001111100
10111101100000011001010011100101
10111110000100101000101001000101
00111100100000010001111111001101
10111101101110011001101001100111
00111110000000111001100101000010
00111100100111001100000011110110
00111101101111110111000111110110
00111100101101111110011001111011
00111100100010101100010001011001
10111100011001000110101101000111
10111110000100010000101111100011
10111110000000110000101011111010
00111110010000110111101000000111
00111101101111010100000110100101
00111110001011110101001110011001
00111101101111001010111010011110
10111101000111110100100000100100
10111011000010000010111000111000
10111101100000000000110111110010
10111110000101101110011000011010
10111101010001110001111010001000
00111110011100111101101111101101
00111110001101011110110011000011
00111101111000000110110101110000
10111100101000110010111011010001
10111101101101011010000000100111
10111101111010101110001111011011
00111100010011010001110100101010
10111100101111000001101110000001
10111100110111010000010110111011
00111101101010100100100001111100
00111110001011101100011001101100
00111101000100110001100101010101
10111101111011101010000100011110
10111100100111100111001100000101
10111101001000111101110010110101
00111110000000001100001001011010
00111110010111000011010001001111
10111101010011110001111011110000
10111101101100101010001110110111
10111110000100010010001001100101
00111101000101011101101110011000
00111110100001110011111100110111
10111101111000000001110010000110
10111110001100000111000001110110
00111101100001001010010010001011
10111011101110111000111101101100
00111110111100101001101010101000
10111100011000010111001111101111
10111100100101110011100001010011
10111110011111011010110101010110
10111110011010100111010111101011
00111100111000111111111000101010
00111101101100010011110000010110
10111110000000001000100010011001
00111100110011101111001101100011
00111101000110010111001111100101
00111101101001000001010101001110
00111110010011110010000010010111
00111110001110110001001011100100
00111101100010110110111000000110
00111110000011001100010101110111
00111110001111011001111011111110
10111110000000000001000011100001
00111101100001100101000111000101
10111101100000000111011111101100
10111110001100111010111100110110
10111110001111111110110001011000
00111100111110110101011000000101
10111110010101100100111100110011
10111101001000000110100000111001
10111110000111111111010110110110
00111101110011000011001110110101
10111100111101000000110111001101
10111110100000011111010011001111
00111101100110010111011000111101
10111110010111110101001101000101
10111101100111101001011110110010
00111100100110001001101001011101
10111110110011110001111101010011
00111101001100100001111001100011
00111100001110010000111100100110
00111101100001001000110010000111
00111101111011011011000101010111
00111110001110110001000011000110
00111100011001100001011000011010
00111110010010011010011111101100
00111100010110010101010001110001
00111110001011001111010111110000
10111100111101101010101100100111
00111101000010111011010010000001
00111110100100101011110100101110
00111101111010111110110100010110
10111101001101001000010110001001
00111101100101110100101111101111
10111101110100010010011101100100
10111101110110100110011011111101
10111101110011011110111101011001
10111110011001000111110111101101
10111110001101110011010111100010
00111011100110010000111110001100
10111101110000111000100110101111
00111101100000111111000110101111
10111100100110111011101101110111
00111110011001100011000000111111
00111110000111011110110111000011
00111101010011010011110101100001
00111110010011000111110001110011
10111110101110111101010100010111
10111101010000000101001010110111
10111101101001001110011100110010
00111110000111000110000101110100
10111110001001000110010001111100
10111101111110110000000000001000
10111101010110001001001010000110
10111110000100111101110101000010
00111101010111010000010000010001
00111101001111111000011101111000
00111110000110111010101111000011
10111101111011001000010100000110
10111101101001001100000001110011
00111101111001101110010110100101
00111110011011000010010001101011
00111100011111010110011110010011
10111100000001011011010111101001
00111011110110100011000011010001
00111110011101101101101010101101
10111110101101101011110100110111
00111110001000101111111010011111
10111110000111001100001111101110
10111110000110001101010110100110
10111100110110000011110011110101
00111110010010011100010101010000
10111110011101011000111111101111
00111101001010001111011001000001
10111100010010000100100100100110
00111110011011100000011110100001
00111110000110101100011010000000
10111110001001010011110111100011
00111100101101000010001011100110
10111110101111110111000010110100
10111101101101110110001111001101
00111101001111100110101010100001
10111110101001000001011001101000
10111101100111111000000011011100
10111101100101110111000011100100
00111110001110111001010000111101
10111110000101110000000010100110
10111100001010110010010000111111
00111101010101010010001100111101
00111101001100000110100001011111
00111101011000110101010101010011
00111110100001110010100100101100
10111101111100000100111001111100
00111101011011011110111110101001
00111101100110001010011111111101
10111101011100011111000111101001
10111100101101000101111000110010
00111101001011010101110001111100
10111110100110110100010000011101
10111101111001101100001101011100
10111110001111111010100000001101
10111101101101010010110101100010
10111100010001111011101101000011
00111101111000010000010100100110
10111110010010010101100111000110
10111110000010000000110001010000
10111110000110001111010001100100
00111110100101101100001011000000
10111101111100010100111010011100
10111101010010111000011011000000
10111100101010000110010010011010
10111110110110101010000011111110
10111101111001101001011011101110
00111101000000001100000000101111
10111101100101011000010000001010
00111101001011110010001100100000
10111110001101111110010111110110
10111101101110111010010111000111
10111110011011000110010001101000
10111101111010111010100010000111
10111110001000011011010010001000
00111110000100100101101100011100
10111110001010100111010101110010
10111101100010110011110100011111
10111101100010101111101100111110
10111101100110000000010010100101
00111101110100100111011100001101
10111101100110011011001101010111
10111011000110010101000110100001
00111110001101011011010010000000
10111110011000111100010100010000
00111110010111000011110111101011
10111101101111110011110111110000
10111110001011000100111011100100
00111101100110001110100010000010
10111101110001110111010101010110
10111101101000111111101000011010
00111101100111111111101001000001
00111101000001010011110101000110
10111100001111010001011010111000