00111110100001111011100101110110
10111101101010010001001010010111
10111011001000111110011101110111
00111100011010010111010111010111
00111110011111010101011010000000
10111110100000010101001010101101
10111110010010111001010110011010
10111110001100010001001000111101
10111100100110000011011010110111
10111011111000010000101010000011
00111101111101101111110110100110
10111101101111111011110001010010
00111101101111010110111011010001
10111100111001011100101110000101
10111100100011010011101100110100
10111110000110111010011001001110
00111100110011101111111001000001
00111101110010001000110001011100
10111101000001101100111111110100
00111110000101000110110111110111
10111101101011110111000000001011
10111101000100101001001110010100
00111110011110011110011010100001
10111110100000001101000100101101
00111011000001111010000001001111
10111110100101011110000100101000
00111110100001111011110001001011
00111110011000000111000011011100
10111011100101110011110011101110
10111101000111001101110001110000
10111101100100111001101000010101
00111110100001111001010110011111
00111101101011001001100100111111
10111110000001010011110111100000
10111110011110110001110110000010
10111110000110011100000110001101
10111100101010100110110001111111
00111110100001101000010010000001
00111010100100011000110001001001
00111101110000000111000000100000
10111100100010111101001010111101
10111101111000111001010100111000
00111110010110011010011111000001
10111110000000100001110000101000
10111110001000001010100100010100
00111110010101001100000100101111
00111101010010011000001111010010
00111110000000110000000000110001
00111110001000100101111010010001
00111110100010010001101111011011
00111101110111001011000111010011
00111110010100010110000011010101
00111110010001110111100001111011
00111110000110011011001000011000
00111110001101101110011110011100
00111110100000011100111011101101
00111101101100000110101100000100
00111011111000010000000000000110
00111101100110011100100000010111
00111110100000101100111000010101
00111100111011000000100001111100
00111011100000100000100101000000
00111110001001111101001011010111
00111110101100010111010010100111
10111101010001110010000000100001
10111101101001011111010100100100
10111101110110111000100100111001
00111101111110000010111110110101
00111101011100110001001001010100
10111110000100011100011000110011
10111110010010010011010101101010
10111110000111101111001001001000
00111110011110000110101100100100
10111100110010001000101111101100
00111010101000110000100110001000
00111110010001100001110000101001
10111110001011000100001110001111
00111110011100100011010001010100
10111101100011101111101110010000
00111101110111001001001111011110
00111100000000011101000010001000
00111110000011010000010001110000
00111101111100001001011010101110
10111101110010101110001110111010
10111101001001100100101000000011
00111110010111001000011010011000
00111101111101111100011110011111
10111110010100000101110010000111
10111110010101010101100011001110
10111101100110101111010001001010
10111110010010000001010011001111
00111110001010010011011100100100
10111101100101101010011010101000
00111110000010111110111001111100
10111110000101000100111000110001
10111110000110100010100101000001
10111110000011101001011011110001
10111101111101100000100011111110
10111110100101000100111001010101
00111101000001000110010001010101
10111011000011000011010010011010
00111110001110000001111010000101
00111101011111110111001000110101
00111110001010011010001110111101
00111110011001010111001000000101
10111110000011000101111100000101
10111100000010110010100100101101
00111110100001110110111010010101
00111101111001011101001010000001
10111110100100010010100011000111
00111011110011001100110000111010
10111101100001111000010011100011
10111101100111001111110000111101
10111101111101100010101111010100
00111100101111000101110101101011
10111110001100110010000000101101
10111110001110001100100011001000
00111101110011001001100110001101
00111101110001011010000001011000
10111101111000101100100110110010
00111110001011100111011100001011
10111101110100010101110001111111
00111011010010001110100000010001
10111110000001011000110101100000
10111100100110111011001110000111
10111110001001000000101110000110
00111101100111001111011010011111
00111101100110001000110101000001
00111110000000000101001010111011
10111110100010110001100011000010
10111110001011101011011010011000
10111101001000010101001110110100
10111110011100110111110000111001
00111101100000001000100101110010
10111101110010111110010000001011
10111110101100100011111111010000
10111101100010011000010111011001
10111110011100110101100011001111
00111100110000000001010001010100
00111110001000000110100110110101
00111101100010110101100100111010
10111110001001010011001100100110
00111110100100001010011101011001
00111100111010100100000101101101
10111110001001011010100111101011
00111110100000001001001000101011
00111110011110001111011001100110
00111101000010000010001110101111
00111010101011110110101100011110
00111110000010101110011011000100
00111101100101000000000110110010
10111100000011010011010000010000
00111110000101110011100001011011
00111110001100110011001010101010
10111110000111110100010000000000
10111101101100111000111011001010
00111110100011100010011111101110
10111110000110010111000110101011
00111101011111011001100110001101
00111110000100001110000101010000
10111110000100001001001100100101
00111110011110011000101010001110
10111110000000100001100001101001
00111101000101000010011011100001
00111101111011000000011100100000
10111110000111001011010101111000
10111110011110101101101100100101
10111101110111011101111010000101
10111110100111000101100100011001
10111110100011111000000010001011
00111101001111011101001010100010
10111110100111100010110010101011
10111110010111101110101011011100
10111110100101010111110010111101
10111110100010101000001000010110
00111101011100000100011111001010
10111110000011001000101011100111
00111101110001011010001110010101
10111101001101001010101010001011
00111100000110001111101010001110
00111101110111101001100100110100
10111110001010011101011111110111
00111101010010001100000110011111
00111110000101010000011001001100
00111101001000101101110000001100
00111110010100110000100111101001
00111110011110001010110011011111
00111101100000100111011110000000
00111110100001111111111000000101
10111101101001010110011100110110
00111010101010100011001101101100
00111101010101011111101000000110
00111110000010010011011001000011
10111101010101101010110010111000
00111101101100101010100100010010
00111110011010010110100110010100
10111110000001110111110010001010
00111110010000000110001100001101
00111110001011111110110110110000
10111101001101111101101010100001
00111101000011110101010000011011
10111110100011110001111010101101
10111110011110110001110110000111
00111110110000001010110101101110
00111110000011100011110101000111
00111110100100011010100001101110
00111100010110010010100001011101
10111110001000001010111111101001
00111101110101111111000001001101
10111110001101101000100011110110
00111101100010110111010001100010
00111110000001111011010111000001
10111101001011000000111100111101
10111100110100100001111100010011
10111101010110110010110001000011
00111110000000110111010111000010
00111101010011000000101000110101
00111101110000000011110000000110
00111101111011010001100011010001
10111110010000110000010110111110
10111110100000111001101010100111
00111100001010110000000100011011
10111101110010111100100010011001
00111110001000011111101010011010
00111110100010111000111001111000
00111101101011111111100011000110
00111101100110110111011000100110
00111101110110010010101000000100
00111110010011110100100110011101
10111110011101100000000011100101
00111110011000001101001011011011
10111110000111110011100100011110
10111100110001101110101000100010
00111101101000010101111111001110
00111101100100101000011110010000
00111101000010101011011101111001
10111110000011101111001001000000
10111110010101000111010010101011
00111101111010011011111001111111
10111110011011011110101000111010
00111101110001111000010100011111
00111110101001001010110101001111
00111101101110100101100100101110
00111110001011011110101011011000
00111100101010100101011001011011
10111100110110110111011010000111
00111110100010100110011001010010
00111110101011001010000111011000
00111101010001101111111111110101
10111101011101010101001011100100
00111110000110100110110001001010
00111110000110000111001101101110
00111110001011101100110101110101
10111101011101110110011101000101
00111101000100011011111110100001
10111100111110001001011001000010
10111110001110111001011010011111
10111110011000011010010110011111
10111100001010100100111001011101
00111101011100001010101100100111
10111110000001010111011110100110
10111110001001111110101110000001
10111101111111110110100100100000
00111110001000000011110111101000
10111101010000110000100101000000
00111100111100000011110110001011
10111110001100000100110100000010
00111101010001011111010111110000
10111100110000000000011001001100
10111110000110011010100110110001
00111101011101001110010010000000
00111101100010001001101001110001
00111101100011010110000101101100
00111101000100100011110111110111
00111110011010000011111011010011
10111110011111110010011010110010
10111110000001001010001110000110
10111101101110110010110111110110
10111110001011000010000000110010
00111101000010010010011000110111
00111101100101011000000001010010
10111110101101010111000111010101
10111110100100011110111110011110
10111110000000111111101111100111
00111101001111000110111111101000
10111110101011011010101101111100
00111110001011100110011110001101
00111110001010011010101001101001
10111101110001000110000001111110
10111100110100011000010011010010
10111101000110011111111111110001
10111100101110000011001010100010
00111110000111110100100000001110
00111101100111101011000011101000
00111011010100110111110111000001
00111101101010000000110000000010
